// Auto-generated by Week 4 AI/ML Mote Lab — do not edit manually.
// Re-run the Python conversion cell if you retrain the model.

#pragma once

const unsigned char model_data[] = {
  0x1c, 0x00, 0x00, 0x00, 0x54, 0x46, 0x4c, 0x33, 0x14, 0x00, 0x20, 0x00, 0x1c, 0x00, 0x18, 0x00, 0x14, 0x00, 0x10, 0x00, 0x0c, 0x00, 0x00, 0x00, 0x08, 0x00, 0x04, 0x00, 0x14, 0x00, 0x00, 0x00, 0x1c, 0x00, 0x00, 0x00, 0x98, 0x00, 0x00, 0x00, 0xf0, 0x00, 0x00, 0x00, 0xdc, 0x0a, 0x00, 0x00, 0xec, 0x0a, 0x00, 0x00, 0x78, 0x11, 0x00, 0x00, 0x03, 0x00, 0x00, 0x00, 0x01, 0x00, 0x00, 0x00, 0x10, 0x00, 0x00, 0x00, 0x00, 0x00, 0x0a, 0x00, 0x10, 0x00, 0x0c, 0x00, 0x08, 0x00, 0x04, 0x00, 0x0a, 0x00, 0x00, 0x00, 0x0c, 0x00, 0x00, 0x00, 0x1c, 0x00, 0x00, 0x00, 0x3c, 0x00, 0x00, 0x00, 0x0f, 0x00, 0x00, 0x00, 0x73, 0x65, 0x72, 0x76, 0x69, 0x6e, 0x67, 0x5f, 0x64, 0x65, 0x66, 0x61, 0x75, 0x6c, 0x74, 0x00, 0x01, 0x00, 0x00, 0x00, 0x04, 0x00, 0x00, 0x00, 0x90, 0xff, 0xff, 0xff, 0x0a, 0x00, 0x00, 0x00, 0x04, 0x00, 0x00, 0x00, 0x08, 0x00, 0x00, 0x00, 0x6f, 0x75, 0x74, 0x70, 0x75, 0x74, 0x5f, 0x30, 0x00, 0x00, 0x00, 0x00, 0x01, 0x00, 0x00, 0x00, 0x04, 0x00, 0x00, 0x00, 0x0a, 0xf5, 0xff, 0xff, 0x04, 0x00, 0x00, 0x00, 0x0c, 0x00, 0x00, 0x00, 0x6b, 0x65, 0x72, 0x61, 0x73, 0x5f, 0x74, 0x65, 0x6e, 0x73, 0x6f, 0x72, 0x00, 0x00, 0x00, 0x00, 0x02, 0x00, 0x00, 0x00, 0x34, 0x00, 0x00, 0x00, 0x04, 0x00, 0x00, 0x00, 0xdc, 0xff, 0xff, 0xff, 0x0d, 0x00, 0x00, 0x00, 0x04, 0x00, 0x00, 0x00, 0x13, 0x00, 0x00, 0x00, 0x43, 0x4f, 0x4e, 0x56, 0x45, 0x52, 0x53, 0x49, 0x4f, 0x4e, 0x5f, 0x4d, 0x45, 0x54, 0x41, 0x44, 0x41, 0x54, 0x41, 0x00, 0x08, 0x00, 0x0c, 0x00, 0x08, 0x00, 0x04, 0x00, 0x08, 0x00, 0x00, 0x00, 0x0c, 0x00, 0x00, 0x00, 0x04, 0x00, 0x00, 0x00, 0x13, 0x00, 0x00, 0x00, 0x6d, 0x69, 0x6e, 0x5f, 0x72, 0x75, 0x6e, 0x74, 0x69, 0x6d, 0x65, 0x5f, 0x76, 0x65, 0x72, 0x73, 0x69, 0x6f, 0x6e, 0x00, 0x0e, 0x00, 0x00, 0x00, 0xe8, 0x09, 0x00, 0x00, 0xe0, 0x09, 0x00, 0x00, 0xb0, 0x09, 0x00, 0x00, 0x94, 0x09, 0x00, 0x00, 0x24, 0x09, 0x00, 0x00, 0x14, 0x07, 0x00, 0x00, 0x04, 0x01, 0x00, 0x00, 0xb4, 0x00, 0x00, 0x00, 0xac, 0x00, 0x00, 0x00, 0xa4, 0x00, 0x00, 0x00, 0x9c, 0x00, 0x00, 0x00, 0x94, 0x00, 0x00, 0x00, 0x74, 0x00, 0x00, 0x00, 0x04, 0x00, 0x00, 0x00, 0xbe, 0xf5, 0xff, 0xff, 0x04, 0x00, 0x00, 0x00, 0x60, 0x00, 0x00, 0x00, 0x10, 0x00, 0x00, 0x00, 0x00, 0x00, 0x00, 0x00, 0x08, 0x00, 0x0e, 0x00, 0x08, 0x00, 0x04, 0x00, 0x08, 0x00, 0x00, 0x00, 0x10, 0x00, 0x00, 0x00, 0x24, 0x00, 0x00, 0x00, 0x00, 0x00, 0x06, 0x00, 0x08, 0x00, 0x04, 0x00, 0x06, 0x00, 0x00, 0x00, 0x04, 0x00, 0x00, 0x00, 0x00, 0x00, 0x00, 0x00, 0x0c, 0x00, 0x18, 0x00, 0x14, 0x00, 0x10, 0x00, 0x0c, 0x00, 0x04, 0x00, 0x0c, 0x00, 0x00, 0x00, 0xd1, 0xae, 0xd3, 0x20, 0x01, 0x70, 0x0e, 0xf9, 0x02, 0x00, 0x00, 0x00, 0x02, 0x00, 0x00, 0x00, 0x04, 0x00, 0x00, 0x00, 0x06, 0x00, 0x00, 0x00, 0x32, 0x2e, 0x32, 0x31, 0x2e, 0x30, 0x00, 0x00, 0x2a, 0xf6, 0xff, 0xff, 0x04, 0x00, 0x00, 0x00, 0x10, 0x00, 0x00, 0x00, 0x31, 0x2e, 0x35, 0x2e, 0x30, 0x00, 0x00, 0x00, 0x00, 0x00, 0x00, 0x00, 0x00, 0x00, 0x00, 0x00, 0x68, 0xf0, 0xff, 0xff, 0x6c, 0xf0, 0xff, 0xff, 0x70, 0xf0, 0xff, 0xff, 0x74, 0xf0, 0xff, 0xff, 0x56, 0xf6, 0xff, 0xff, 0x04, 0x00, 0x00, 0x00, 0x40, 0x00, 0x00, 0x00, 0x86, 0xd0, 0x10, 0xbd, 0x21, 0x2e, 0x44, 0x3e, 0x06, 0xb4, 0x5c, 0x3e, 0xb3, 0x8a, 0x3f, 0x3e, 0x62, 0x84, 0xe2, 0x3c, 0x32, 0xa3, 0xdb, 0x3d, 0xe8, 0xe9, 0x11, 0x3e, 0x4a, 0xc0, 0xe5, 0x3d, 0xae, 0x54, 0x54, 0x3d, 0x4e, 0x55, 0xd6, 0x3d, 0x30, 0x34, 0x4a, 0xbd, 0x16, 0x04, 0x52, 0x3e, 0xbb, 0xf7, 0x30, 0x3d, 0x03, 0xed, 0x2e, 0xbd, 0xba, 0xec, 0x0f, 0x3e, 0x6c, 0x53, 0x3d, 0x3d, 0xa2, 0xf6, 0xff, 0xff, 0x04, 0x00, 0x00, 0x00, 0x00, 0x06, 0x00, 0x00, 0xea, 0xec, 0x60, 0x3e, 0x41, 0xc8, 0xac, 0xbe, 0x3a, 0x43, 0xa5, 0xbe, 0xb5, 0xe6, 0x91, 0xbe, 0xdd, 0x6c, 0x8d, 0x3e, 0xe7, 0x2c, 0x8e, 0x3e, 0x7c, 0x89, 0xbe, 0x3e, 0xf7, 0xea, 0x59, 0xbe, 0xea, 0xbb, 0x36, 0x3e, 0x5a, 0x10, 0x59, 0xbe, 0x4c, 0x01, 0x41, 0xbd, 0x1d, 0x54, 0x98, 0xbe, 0x49, 0xac, 0x06, 0x3e, 0xe4, 0x36, 0xad, 0x3e, 0x8d, 0x41, 0xa7, 0xbd, 0x34, 0x1d, 0xd2, 0x3e, 0xc9, 0x15, 0xa0, 0x3d, 0x53, 0x87, 0x58, 0xbe, 0x1a, 0x82, 0x6b, 0xbc, 0x22, 0x61, 0xe3, 0xbc, 0xcd, 0xa1, 0xcf, 0xbd, 0xca, 0x8f, 0xa6, 0xbc, 0x49, 0xd2, 0xe0, 0x3e, 0x9b, 0x08, 0x66, 0x3e, 0xfa, 0x99, 0x28, 0x3c, 0xe6, 0xce, 0xe2, 0xbe, 0xb4, 0x67, 0x58, 0xbe, 0xd0, 0x18, 0xeb, 0xbe, 0xc2, 0x18, 0x9b, 0x3e, 0xfb, 0x47, 0xe5, 0x3e, 0xc5, 0x80, 0x98, 0xbd, 0xf1, 0x15, 0x7a, 0xbe, 0xc1, 0xd1, 0x21, 0xbe, 0xb7, 0xf0, 0xd1, 0x3d, 0x0d, 0x8d, 0x66, 0xbe, 0xa8, 0x1d, 0x9a, 0x3e, 0xd6, 0x02, 0x80, 0xbe, 0xab, 0x45, 0x01, 0x3f, 0xd7, 0x6c, 0xc8, 0x3e, 0xff, 0x37, 0x80, 0x3e, 0x26, 0x98, 0xc9, 0x3e, 0x59, 0x07, 0x94, 0xbe, 0x64, 0x01, 0x96, 0x3d, 0x3e, 0xde, 0xcc, 0xbc, 0xba, 0x28, 0x4b, 0x3e, 0xfa, 0xc8, 0x0c, 0x3e, 0x45, 0x89, 0x5e, 0xbe, 0x02, 0x9d, 0x47, 0x3e, 0xa0, 0xcb, 0x96, 0xbe, 0x4a, 0x2a, 0xf9, 0xbb, 0x6b, 0xdf, 0x7a, 0xbe, 0x5c, 0x19, 0x06, 0xbf, 0x18, 0xec, 0xc1, 0xbe, 0xda, 0xdf, 0x88, 0xbe, 0xfc, 0x46, 0xaa, 0x3e, 0xca, 0x55, 0x1c, 0xbe, 0x0e, 0xaf, 0x59, 0x3d, 0xbc, 0x70, 0x73, 0xbe, 0x83, 0x76, 0x49, 0xbd, 0xfd, 0x95, 0x82, 0xbd, 0xb7, 0x51, 0x3e, 0x3e, 0x1a, 0xe0, 0xc5, 0xbd, 0x38, 0x83, 0xb9, 0x3e, 0x8f, 0xe0, 0x06, 0xbd, 0x16, 0x7a, 0x04, 0xbf, 0x68, 0x2b, 0xcd, 0x3e, 0x86, 0x8d, 0x3c, 0x3d, 0x69, 0xf2, 0xa5, 0x3e, 0xb6, 0xe7, 0x15, 0x3e, 0x77, 0xb8, 0xba, 0x3e, 0x19, 0x12, 0x8f, 0x3d, 0x73, 0x19, 0x57, 0x3e, 0xd4, 0x30, 0x9b, 0x3e, 0xf1, 0xa3, 0xa9, 0x3e, 0xc3, 0x52, 0x82, 0x3e, 0x93, 0x38, 0x65, 0x3e, 0x35, 0x6d, 0x77, 0xbe, 0x2c, 0xd8, 0x00, 0x3f, 0x3e, 0x59, 0x7e, 0x3e, 0xa1, 0x43, 0x02, 0x3e, 0x8d, 0xf6, 0x06, 0xbe, 0xb8, 0xc3, 0xa0, 0x3e, 0x1f, 0x74, 0x32, 0xbe, 0x1b, 0x6a, 0x03, 0x3f, 0x33, 0x11, 0xc5, 0xbc, 0x48, 0xc4, 0xb8, 0x3e, 0x24, 0x9c, 0x88, 0x3d, 0x3c, 0x74, 0xa4, 0x3e, 0xad, 0xdb, 0xc3, 0x3e, 0x6b, 0x1b, 0xff, 0x3e, 0x9c, 0x17, 0x03, 0xbe, 0x1a, 0x32, 0x1b, 0xbd, 0x54, 0x87, 0x2b, 0xbc, 0x0e, 0xda, 0xd8, 0x3d, 0x93, 0x3e, 0x74, 0xbd, 0x52, 0x80, 0xd7, 0xbd, 0x1c, 0xa0, 0x8d, 0xbc, 0xbe, 0xa7, 0xe9, 0xbd, 0xd2, 0xdb, 0xa6, 0xbe, 0x62, 0x77, 0x0b, 0x3e, 0x73, 0xbd, 0xb4, 0xbb, 0xc4, 0x1e, 0x86, 0x3e, 0xdc, 0x95, 0x53, 0xbc, 0x87, 0xb4, 0x04, 0xbd, 0x00, 0x79, 0x83, 0xbe, 0xdd, 0x7c, 0x73, 0xbe, 0x9a, 0x99, 0x45, 0xbe, 0x4e, 0x75, 0x96, 0x3d, 0x72, 0x7c, 0x40, 0x3c, 0xea, 0xba, 0x9d, 0x3c, 0x9b, 0x44, 0x90, 0x3e, 0x33, 0x19, 0x10, 0xbe, 0x1b, 0x7e, 0xc9, 0x3d, 0x86, 0xb9, 0x6d, 0x3e, 0xef, 0xd3, 0xb4, 0x3e, 0x6b, 0x35, 0x90, 0x3c, 0xc9, 0xc2, 0x98, 0x3e, 0x94, 0x23, 0x8b, 0xbe, 0x10, 0x55, 0x07, 0x3e, 0x13, 0x6b, 0xe7, 0xbd, 0x1b, 0x3a, 0xde, 0x3e, 0x11, 0xe0, 0x22, 0x3e, 0x1c, 0x53, 0xeb, 0x3e, 0x2d, 0x10, 0xae, 0x3e, 0x64, 0xd5, 0x76, 0x3e, 0x4c, 0x0b, 0xb2, 0x3e, 0x4f, 0xc4, 0x8a, 0x3e, 0xd2, 0xa4, 0x88, 0x3e, 0x7f, 0x2b, 0x16, 0x3b, 0x14, 0x30, 0xa0, 0x3e, 0x72, 0x6d, 0xef, 0x3e, 0x90, 0x1e, 0x8b, 0x3e, 0x2d, 0x30, 0x65, 0xbd, 0xda, 0xb4, 0x40, 0xbe, 0x31, 0xd1, 0x58, 0xbe, 0xd4, 0x87, 0x87, 0xbe, 0xec, 0xe9, 0x20, 0xbe, 0x74, 0xac, 0x2d, 0x3e, 0xb7, 0xb2, 0x95, 0x3d, 0x0f, 0x9c, 0x55, 0xbe, 0xdb, 0x71, 0xb8, 0xbd, 0xff, 0x48, 0xbe, 0x3e, 0x95, 0xf0, 0x82, 0x3e, 0x94, 0xfb, 0x51, 0xbe, 0xd4, 0x39, 0xdc, 0x3e, 0xd5, 0x0e, 0x08, 0x3d, 0x2f, 0x19, 0xc4, 0x3e, 0x5a, 0x0d, 0xe8, 0x3e, 0x84, 0xff, 0x5e, 0x3e, 0xfd, 0xe6, 0x1d, 0x3e, 0x88, 0x6e, 0x7a, 0x3e, 0x27, 0x7e, 0xf5, 0x3e, 0x2b, 0x1a, 0x8c, 0xbe, 0x4a, 0x76, 0x4d, 0x3d, 0x6a, 0x15, 0x54, 0x3e, 0xd8, 0x71, 0x02, 0x3e, 0x98, 0x71, 0x4e, 0x3e, 0x1b, 0xbc, 0x89, 0x3e, 0xbd, 0x2e, 0xd4, 0xbd, 0xea, 0x05, 0x81, 0x3c, 0x33, 0x9f, 0x69, 0x3e, 0x95, 0x54, 0x36, 0x3e, 0x99, 0x93, 0xe7, 0x3e, 0xec, 0x8d, 0x14, 0x3e, 0xd2, 0x01, 0xca, 0x3d, 0x37, 0x73, 0x73, 0xbd, 0xac, 0xa4, 0x79, 0xbe, 0x17, 0xaf, 0x04, 0x3f, 0x0a, 0xf7, 0x8f, 0x3c, 0xa4, 0x19, 0xe8, 0x3d, 0xed, 0x0f, 0x39, 0xbe, 0xa8, 0x59, 0x7c, 0xbe, 0x7f, 0xd5, 0x16, 0x3e, 0xa2, 0x52, 0x7e, 0x3e, 0x78, 0x5e, 0x5f, 0xbe, 0x22, 0xaf, 0xe7, 0xbd, 0x8c, 0xf6, 0xa1, 0xbe, 0xdb, 0xee, 0x14, 0xbc, 0xa3, 0x38, 0xe2, 0x3e, 0xbf, 0xd0, 0x3b, 0xbd, 0xc7, 0x3c, 0xc3, 0xbe, 0x03, 0xf2, 0xf4, 0x3e, 0x30, 0xb5, 0xfe, 0x3d, 0xc7, 0x17, 0xbd, 0xbe, 0x98, 0xac, 0xc4, 0x3e, 0x4c, 0x71, 0xe5, 0x3e, 0xd4, 0xbc, 0x87, 0xbe, 0x19, 0x48, 0x28, 0xbe, 0xb7, 0xd1, 0xc4, 0xbe, 0x82, 0xc9, 0x17, 0x3e, 0xfa, 0xd7, 0xfd, 0xbc, 0x63, 0x7b, 0xa7, 0xbd, 0x41, 0xc0, 0x89, 0x3e, 0x4c, 0x70, 0x44, 0x3d, 0xc7, 0x8c, 0x27, 0x3e, 0x31, 0x9f, 0x08, 0xbf, 0xc5, 0x7d, 0x93, 0x3e, 0xaa, 0x39, 0x95, 0x3d, 0x3b, 0xec, 0x64, 0xbe, 0x63, 0x96, 0x1e, 0xbe, 0xeb, 0x74, 0x9d, 0x3d, 0x69, 0xe6, 0x4f, 0xbe, 0xc2, 0x82, 0xf4, 0xbe, 0xce, 0x9b, 0xef, 0xbe, 0x86, 0x5b, 0xee, 0xbe, 0x8d, 0x06, 0x2d, 0x3e, 0xdc, 0x83, 0x0c, 0x3e, 0x03, 0x32, 0x7a, 0xbd, 0xbd, 0x51, 0xf7, 0xbe, 0xa6, 0xa8, 0xe6, 0xbd, 0xbc, 0x4c, 0x9e, 0xbe, 0x24, 0x17, 0x6b, 0xbe, 0xb7, 0x11, 0xd4, 0x3d, 0x4a, 0xf4, 0xe8, 0x3d, 0x00, 0x19, 0x94, 0xbe, 0x95, 0x8e, 0x87, 0x3e, 0x35, 0xa5, 0x4f, 0xbe, 0x31, 0xc0, 0x36, 0x3e, 0x3a, 0xa6, 0x6d, 0xbe, 0xdc, 0x22, 0xb1, 0x3e, 0x82, 0xde, 0x92, 0xbe, 0xfb, 0xef, 0x61, 0xbd, 0xb1, 0x55, 0xc9, 0xbe, 0xc4, 0x7e, 0x77, 0x3d, 0x5c, 0x00, 0x0a, 0xbe, 0x33, 0x1b, 0x81, 0xbe, 0x3f, 0xf5, 0x71, 0x3e, 0xc6, 0x77, 0xad, 0x3e, 0xa4, 0x3d, 0xae, 0x3d, 0xdd, 0xaa, 0x75, 0xbe, 0x69, 0xb2, 0x48, 0xbe, 0x1f, 0x29, 0xc9, 0x3e, 0x8d, 0x9b, 0x7a, 0x3e, 0xa5, 0xe9, 0x6c, 0xbd, 0x1f, 0x29, 0x7e, 0x3c, 0x3b, 0x9a, 0x2d, 0x3e, 0x18, 0x54, 0xc0, 0x3e, 0x6c, 0x9d, 0x86, 0xbd, 0x59, 0x3e, 0x2e, 0x3d, 0x43, 0x30, 0x44, 0x3e, 0x64, 0x01, 0x9c, 0x3e, 0x24, 0x6e, 0x81, 0x3d, 0xf6, 0x48, 0x62, 0xbe, 0x45, 0x6f, 0x32, 0x3e, 0x11, 0x13, 0x21, 0xbe, 0x72, 0xf9, 0x34, 0x3e, 0xcb, 0x81, 0x9a, 0xbe, 0x3c, 0xde, 0xd1, 0xbd, 0x7a, 0x49, 0xcf, 0xbe, 0xef, 0xc3, 0xcf, 0xbc, 0x39, 0x13, 0xb7, 0xbd, 0xb6, 0xf5, 0xa5, 0x3e, 0x10, 0x21, 0x06, 0xbc, 0x7d, 0xff, 0xa4, 0xbe, 0xee, 0x67, 0x77, 0xbe, 0x93, 0x1d, 0x56, 0x3e, 0xa5, 0x63, 0x66, 0xbe, 0x3b, 0x11, 0x9b, 0x3e, 0xb8, 0xd4, 0x45, 0xbd, 0x00, 0x73, 0x5e, 0x3e, 0x4a, 0x19, 0xe2, 0xbc, 0x5d, 0xd7, 0x2f, 0xbe, 0x58, 0xec, 0xbd, 0x3d, 0x87, 0x1c, 0xbc, 0x3d, 0xb9, 0x91, 0x65, 0xbe, 0xfc, 0xa9, 0x00, 0xbe, 0x0f, 0xdf, 0xa1, 0xbe, 0x35, 0x5c, 0x53, 0x3e, 0xfe, 0xae, 0x62, 0xbe, 0x28, 0x1a, 0xce, 0x3e, 0xfc, 0x10, 0x91, 0xbd, 0x4a, 0x53, 0x8e, 0x3e, 0x44, 0x9a, 0x3e, 0x3e, 0x88, 0xea, 0x91, 0x3e, 0xe9, 0xf5, 0xd0, 0x3e, 0xe5, 0x1a, 0x8e, 0xbe, 0xd3, 0x98, 0xe0, 0x3e, 0xde, 0x09, 0xc3, 0x3e, 0x5c, 0x94, 0x9f, 0x3e, 0xc5, 0xe4, 0x8a, 0x3e, 0x11, 0xbc, 0x8e, 0x3e, 0x08, 0xe2, 0x34, 0x3d, 0x9f, 0x51, 0x74, 0xbe, 0xd5, 0xef, 0x31, 0xbe, 0x25, 0x52, 0xb2, 0x3e, 0xce, 0x3e, 0x2b, 0xbd, 0x53, 0x26, 0x36, 0xbe, 0x63, 0x93, 0x8e, 0xbe, 0x29, 0xa3, 0x51, 0xbe, 0x0d, 0x65, 0x05, 0x3e, 0xa4, 0x6b, 0x90, 0xbd, 0xb7, 0x1b, 0x02, 0x3e, 0x6e, 0x75, 0xba, 0xbe, 0xa6, 0xc3, 0x43, 0x3d, 0x7d, 0x60, 0x4a, 0x3e, 0x07, 0xb7, 0xfc, 0x3d, 0xe4, 0x0c, 0xc0, 0xbd, 0xa8, 0x80, 0x20, 0xbd, 0xd3, 0xf1, 0xcb, 0x3d, 0x6f, 0x61, 0x1d, 0x3e, 0xc7, 0x03, 0x65, 0xbe, 0x13, 0x7e, 0x65, 0x3d, 0x18, 0x16, 0x8f, 0xbc, 0xbe, 0x92, 0xdb, 0xbe, 0x55, 0xab, 0x15, 0xbe, 0x1b, 0x46, 0xa0, 0x3e, 0x89, 0xe9, 0xc0, 0x3e, 0x0f, 0xc6, 0xd5, 0xbe, 0x64, 0xf5, 0x81, 0xbe, 0x3b, 0x7e, 0xce, 0x3e, 0xf8, 0x72, 0xcb, 0x3d, 0xdb, 0x11, 0x71, 0xbe, 0xa0, 0x7d, 0x61, 0x3e, 0xf2, 0xab, 0xa5, 0x3e, 0x3d, 0xf0, 0x90, 0x3e, 0x4f, 0xff, 0x67, 0x3c, 0xe0, 0xab, 0xfd, 0xbd, 0x29, 0xca, 0x5e, 0x3e, 0xb5, 0x92, 0x8f, 0xbd, 0xc6, 0x82, 0x3b, 0xbd, 0x1e, 0x12, 0x8d, 0x3d, 0x9b, 0x5d, 0xa1, 0x3d, 0x84, 0x21, 0xb0, 0xbd, 0x44, 0x08, 0x81, 0x3e, 0x71, 0x49, 0x1a, 0xbe, 0x64, 0x1e, 0x95, 0xbe, 0x46, 0x67, 0x71, 0xbe, 0x14, 0x38, 0x00, 0x3e, 0x9a, 0xe1, 0xfb, 0x3d, 0x0d, 0x50, 0x7e, 0xbe, 0xe2, 0xb4, 0xb8, 0x3d, 0x37, 0x6d, 0x58, 0x3c, 0xca, 0xbf, 0x7a, 0x3e, 0xff, 0x83, 0x41, 0xbe, 0x4e, 0x7e, 0x98, 0x3e, 0x07, 0xc7, 0x0a, 0x3d, 0x07, 0x79, 0xf4, 0x3e, 0x71, 0x7d, 0x10, 0xbe, 0x2f, 0xe7, 0xb2, 0xbe, 0x3b, 0xd1, 0x74, 0xbe, 0x6a, 0x7e, 0xa4, 0x3c, 0xb8, 0x81, 0x57, 0x3e, 0x13, 0x2f, 0x4f, 0x3d, 0x70, 0x23, 0xba, 0xbe, 0x35, 0x1d, 0x56, 0xbe, 0xe8, 0x35, 0x0c, 0xbf, 0xbc, 0x56, 0x1a, 0xbf, 0xaf, 0x2e, 0xb3, 0xbd, 0x28, 0xc1, 0xc1, 0xbd, 0xb3, 0x6b, 0x71, 0xbd, 0x46, 0xd0, 0x8d, 0xbe, 0x2f, 0x08, 0x4d, 0xbe, 0xf8, 0x31, 0xd7, 0xbe, 0x78, 0xf3, 0x01, 0xbf, 0x16, 0x6a, 0xea, 0xbe, 0x1b, 0xd7, 0x66, 0x3e, 0x30, 0x18, 0x0e, 0x3e, 0x50, 0x7d, 0xc9, 0xbd, 0xe2, 0x6f, 0x01, 0xbf, 0xe5, 0x00, 0x05, 0xbf, 0x20, 0x11, 0x91, 0xbb, 0x35, 0xa4, 0x7d, 0xbe, 0xaa, 0x20, 0x64, 0x3d, 0x36, 0xcc, 0x6c, 0x3e, 0x38, 0xa0, 0x14, 0xbe, 0x21, 0xf5, 0x70, 0xbe, 0xc5, 0xe9, 0xf6, 0x3d, 0x38, 0xe9, 0x70, 0xbe, 0xbf, 0x9d, 0x26, 0x3e, 0x1a, 0xa3, 0x02, 0xbf, 0x29, 0xf3, 0xcc, 0xbe, 0x93, 0x11, 0xb0, 0x3d, 0xe6, 0x8b, 0x16, 0xbe, 0xc1, 0x25, 0x06, 0xbf, 0x3a, 0x4c, 0xc7, 0xbe, 0xa7, 0x44, 0x40, 0xbd, 0xae, 0x9c, 0x3e, 0x3d, 0x62, 0xa1, 0x7b, 0xbe, 0x6e, 0xea, 0x04, 0x3e, 0x43, 0xe1, 0x81, 0xbe, 0xe3, 0x64, 0x9e, 0xbe, 0xa1, 0xd7, 0x1d, 0xbe, 0xfe, 0x05, 0xb1, 0xbc, 0xc0, 0x1e, 0xf2, 0xbe, 0xae, 0xfc, 0xff, 0xff, 0x04, 0x00, 0x00, 0x00, 0x00, 0x02, 0x00, 0x00, 0x01, 0x5e, 0x9c, 0xbe, 0x9d, 0x0d, 0x9f, 0x3e, 0x14, 0xb9, 0xba, 0x3e, 0xf1, 0xf3, 0xea, 0x3e, 0xfe, 0x85, 0xd2, 0xbd, 0x9a, 0x32, 0x81, 0x3e, 0x73, 0xfb, 0xf6, 0xbd, 0xbe, 0xb6, 0x07, 0x3f, 0x4a, 0xd8, 0x0e, 0x3d, 0xae, 0x3a, 0x44, 0x3d, 0xed, 0x82, 0xae, 0xbe, 0x0d, 0xf9, 0xc4, 0x3e, 0x1a, 0x41, 0x17, 0x3f, 0xf0, 0x3e, 0xd1, 0xbe, 0xca, 0x8f, 0xa6, 0x3e, 0xf9, 0xc6, 0x1c, 0xbf, 0xab, 0x75, 0xf1, 0xbe, 0x51, 0xbf, 0x01, 0xbf, 0xeb, 0x8b, 0x9c, 0xba, 0x0a, 0xba, 0x9f, 0x3e, 0x09, 0x8e, 0xf7, 0xbe, 0x4f, 0x33, 0x09, 0x3f, 0x91, 0x67, 0xf9, 0x3e, 0x3d, 0x1e, 0xfd, 0xbd, 0xe8, 0x1d, 0x97, 0xbc, 0xa7, 0x0e, 0x8b, 0x3d, 0x9b, 0x09, 0x39, 0xbd, 0x00, 0xa4, 0x97, 0x3e, 0x7c, 0xd7, 0xd6, 0xbe, 0xad, 0x50, 0x66, 0x3e, 0x41, 0x73, 0x09, 0xbe, 0x55, 0xb1, 0x93, 0xbd, 0x4a, 0x26, 0xb1, 0x3e, 0xe2, 0x85, 0x36, 0x3e, 0x2e, 0xee, 0x94, 0xbd, 0xdb, 0xcb, 0x5e, 0xbe, 0x73, 0xa3, 0x0f, 0x3f, 0x09, 0x13, 0xed, 0x3e, 0x96, 0x0c, 0x1b, 0x3e, 0x4a, 0x58, 0x2b, 0x3d, 0xcf, 0xe1, 0xaf, 0xbe, 0x35, 0x58, 0xaf, 0x3e, 0xa2, 0xd2, 0xf7, 0x3e, 0x76, 0xe5, 0x27, 0x3f, 0x65, 0x8e, 0xbe, 0xbd, 0x1a, 0x66, 0x9d, 0xbe, 0x0b, 0xaa, 0x5a, 0x3e, 0xb0, 0x72, 0x66, 0xbe, 0x6f, 0x33, 0x2a, 0x3d, 0x76, 0x9a, 0x10, 0x3e, 0xbc, 0xf6, 0xcb, 0x3e, 0x17, 0x96, 0x2c, 0x3e, 0xdc, 0xdf, 0x43, 0x3e, 0x22, 0x0e, 0x89, 0xbe, 0x1e, 0xef, 0x8d, 0x3e, 0x31, 0x9e, 0x86, 0x3e, 0xca, 0x85, 0x8f, 0x3e, 0x21, 0x87, 0x1c, 0xbe, 0x60, 0x07, 0x0a, 0xbf, 0x2d, 0xc8, 0xdc, 0x3e, 0xc8, 0x35, 0x06, 0x3f, 0xc2, 0x36, 0xac, 0xbe, 0x44, 0x2d, 0x68, 0x3e, 0x65, 0x11, 0x15, 0x3e, 0xef, 0x3c, 0xc4, 0x3e, 0xf9, 0x5d, 0xe8, 0x3e, 0x44, 0x23, 0x03, 0x3f, 0xad, 0xca, 0x5a, 0xbd, 0x87, 0xaa, 0x8b, 0xbd, 0x49, 0x53, 0xb7, 0xbd, 0xee, 0x9f, 0x66, 0xbe, 0xac, 0xdc, 0x78, 0x3e, 0x1c, 0x3e, 0xfe, 0x3d, 0x1f, 0x40, 0xf6, 0xbc, 0x93, 0x5f, 0x8c, 0xbe, 0x15, 0xb1, 0xad, 0x3e, 0xce, 0xa1, 0x38, 0x3f, 0x37, 0x8c, 0x93, 0xbe, 0x77, 0xff, 0xdd, 0xbc, 0x11, 0x07, 0x9c, 0xbd, 0xe5, 0xc2, 0xef, 0x3e, 0x48, 0x7a, 0xa3, 0xbe, 0x80, 0xb7, 0x71, 0x3e, 0xbc, 0x41, 0x30, 0x3f, 0x0a, 0xfa, 0xb3, 0x3e, 0xcc, 0xa1, 0x35, 0xbe, 0x15, 0x7b, 0x91, 0x3d, 0x54, 0x8c, 0xc8, 0xbe, 0x5a, 0xbd, 0x2f, 0xbe, 0xaa, 0x5e, 0xe0, 0x3e, 0x92, 0xf6, 0x66, 0x3e, 0xdd, 0x44, 0xf4, 0xbd, 0x15, 0x18, 0x82, 0xbc, 0xaf, 0x88, 0x67, 0x3e, 0x1f, 0xe3, 0x0e, 0xbe, 0x01, 0x80, 0x41, 0xbc, 0x9c, 0x5b, 0x66, 0xbe, 0x6c, 0x28, 0x12, 0xbd, 0x83, 0xc1, 0x83, 0xbe, 0xe9, 0xae, 0xe4, 0x3e, 0x76, 0x11, 0x88, 0xbe, 0x6c, 0x41, 0xe2, 0x3d, 0x32, 0xfa, 0xae, 0x3e, 0xd7, 0xc7, 0x00, 0xbf, 0xa8, 0x73, 0xa4, 0x3e, 0x27, 0x64, 0xbd, 0xbe, 0x1e, 0x09, 0x13, 0x3e, 0x8a, 0x7e, 0xed, 0xbe, 0x03, 0x7c, 0x85, 0x3e, 0x30, 0x3d, 0x5f, 0x3d, 0x35, 0xa2, 0x32, 0x3f, 0x39, 0xd6, 0x30, 0x3f, 0x31, 0x94, 0xf8, 0x3d, 0x59, 0x53, 0x97, 0x3d, 0x8d, 0x72, 0x3b, 0x3e, 0x74, 0xe1, 0x37, 0xbe, 0x07, 0xf2, 0xad, 0xbe, 0x8b, 0x43, 0x68, 0x3e, 0x59, 0x5e, 0x24, 0x3f, 0x4b, 0x33, 0x0c, 0xbf, 0x0f, 0x0b, 0x47, 0x3e, 0x4f, 0x74, 0x04, 0x3f, 0x05, 0x10, 0x44, 0x3e, 0x8a, 0xc5, 0x86, 0x3e, 0xa1, 0x84, 0xff, 0xbd, 0xe5, 0x4c, 0xc8, 0x3d, 0x50, 0xb9, 0xc4, 0x3c, 0x37, 0x5d, 0xc0, 0xbe, 0xba, 0xfe, 0xff, 0xff, 0x04, 0x00, 0x00, 0x00, 0x60, 0x00, 0x00, 0x00, 0x23, 0xb6, 0x2d, 0x3f, 0x17, 0x68, 0x19, 0xbf, 0xeb, 0xc1, 0x48, 0x3f, 0x8e, 0x02, 0x8f, 0x3e, 0xe7, 0x0a, 0x44, 0x3f, 0x6b, 0x79, 0x20, 0x3e, 0xda, 0x6c, 0x43, 0xbf, 0x3d, 0xb0, 0xce, 0x3e, 0xa8, 0xd9, 0x0a, 0xbe, 0xe7, 0x18, 0x2f, 0x3f, 0x14, 0x77, 0xa3, 0x3e, 0x99, 0x3f, 0x49, 0xbf, 0x5a, 0xbe, 0xeb, 0xbb, 0x62, 0x1c, 0x39, 0x3f, 0x16, 0x9d, 0x56, 0x3e, 0xe9, 0x68, 0x48, 0x3f, 0xd9, 0x38, 0x33, 0xbf, 0x06, 0xeb, 0x98, 0xbe, 0x35, 0xe6, 0x0b, 0x3e, 0x62, 0xf1, 0x7c, 0xbc, 0x6e, 0xea, 0xaa, 0x3e, 0xac, 0x3b, 0xd7, 0xbe, 0xbd, 0x6b, 0xc1, 0x3e, 0x13, 0xf6, 0xb1, 0x3e, 0x26, 0xff, 0xff, 0xff, 0x04, 0x00, 0x00, 0x00, 0x0c, 0x00, 0x00, 0x00, 0x77, 0x95, 0x34, 0x3d, 0xe1, 0x7b, 0xae, 0xbd, 0xa6, 0xa3, 0x47, 0x3d, 0x3e, 0xff, 0xff, 0xff, 0x04, 0x00, 0x00, 0x00, 0x20, 0x00, 0x00, 0x00, 0xb0, 0xc4, 0x20, 0x3e, 0x4d, 0x27, 0xab, 0x3d, 0x8e, 0xab, 0x2c, 0x3e, 0xc5, 0x9d, 0x66, 0x3d, 0x62, 0x33, 0x31, 0x3e, 0xf4, 0xe4, 0xf5, 0xba, 0x01, 0x3f, 0x42, 0x3d, 0x62, 0x47, 0xaf, 0xbc, 0x8c, 0xf9, 0xff, 0xff, 0x90, 0xf9, 0xff, 0xff, 0x0f, 0x00, 0x00, 0x00, 0x4d, 0x4c, 0x49, 0x52, 0x20, 0x43, 0x6f, 0x6e, 0x76, 0x65, 0x72, 0x74, 0x65, 0x64, 0x2e, 0x00, 0x01, 0x00, 0x00, 0x00, 0x14, 0x00, 0x00, 0x00, 0x00, 0x00, 0x0e, 0x00, 0x18, 0x00, 0x14, 0x00, 0x10, 0x00, 0x0c, 0x00, 0x08, 0x00, 0x04, 0x00, 0x0e, 0x00, 0x00, 0x00, 0x14, 0x00, 0x00, 0x00, 0x1c, 0x00, 0x00, 0x00, 0x34, 0x01, 0x00, 0x00, 0x38, 0x01, 0x00, 0x00, 0x3c, 0x01, 0x00, 0x00, 0x04, 0x00, 0x00, 0x00, 0x6d, 0x61, 0x69, 0x6e, 0x00, 0x00, 0x00, 0x00, 0x04, 0x00, 0x00, 0x00, 0xdc, 0x00, 0x00, 0x00, 0x94, 0x00, 0x00, 0x00, 0x50, 0x00, 0x00, 0x00, 0x14, 0x00, 0x00, 0x00, 0x00, 0x00, 0x0e, 0x00, 0x1a, 0x00, 0x14, 0x00, 0x10, 0x00, 0x0c, 0x00, 0x0b, 0x00, 0x04, 0x00, 0x0e, 0x00, 0x00, 0x00, 0x1c, 0x00, 0x00, 0x00, 0x00, 0x00, 0x00, 0x09, 0x1c, 0x00, 0x00, 0x00, 0x20, 0x00, 0x00, 0x00, 0x01, 0x00, 0x00, 0x00, 0x00, 0x00, 0x06, 0x00, 0x08, 0x00, 0x04, 0x00, 0x06, 0x00, 0x00, 0x00, 0x00, 0x00, 0x80, 0x3f, 0x01, 0x00, 0x00, 0x00, 0x0a, 0x00, 0x00, 0x00, 0x01, 0x00, 0x00, 0x00, 0x09, 0x00, 0x00, 0x00, 0xce, 0xff, 0xff, 0xff, 0x10, 0x00, 0x00, 0x00, 0x00, 0x00, 0x00, 0x08, 0x0c, 0x00, 0x00, 0x00, 0x10, 0x00, 0x00, 0x00, 0x54, 0xfa, 0xff, 0xff, 0x01, 0x00, 0x00, 0x00, 0x09, 0x00, 0x00, 0x00, 0x03, 0x00, 0x00, 0x00, 0x08, 0x00, 0x00, 0x00, 0x03, 0x00, 0x00, 0x00, 0x02, 0x00, 0x00, 0x00, 0x00, 0x00, 0x0e, 0x00, 0x14, 0x00, 0x00, 0x00, 0x10, 0x00, 0x0c, 0x00, 0x0b, 0x00, 0x04, 0x00, 0x0e, 0x00, 0x00, 0x00, 0x10, 0x00, 0x00, 0x00, 0x00, 0x00, 0x00, 0x08, 0x10, 0x00, 0x00, 0x00, 0x14, 0x00, 0x00, 0x00, 0xba, 0xff, 0xff, 0xff, 0x00, 0x00, 0x00, 0x01, 0x01, 0x00, 0x00, 0x00, 0x08, 0x00, 0x00, 0x00, 0x03, 0x00, 0x00, 0x00, 0x07, 0x00, 0x00, 0x00, 0x04, 0x00, 0x00, 0x00, 0x01, 0x00, 0x00, 0x00, 0x00, 0x00, 0x0e, 0x00, 0x16, 0x00, 0x00, 0x00, 0x10, 0x00, 0x0c, 0x00, 0x0b, 0x00, 0x04, 0x00, 0x0e, 0x00, 0x00, 0x00, 0x18, 0x00, 0x00, 0x00, 0x00, 0x00, 0x00, 0x08, 0x18, 0x00, 0x00, 0x00, 0x1c, 0x00, 0x00, 0x00, 0x00, 0x00, 0x06, 0x00, 0x08, 0x00, 0x07, 0x00, 0x06, 0x00, 0x00, 0x00, 0x00, 0x00, 0x00, 0x01, 0x01, 0x00, 0x00, 0x00, 0x07, 0x00, 0x00, 0x00, 0x03, 0x00, 0x00, 0x00, 0x00, 0x00, 0x00, 0x00, 0x05, 0x00, 0x00, 0x00, 0x06, 0x00, 0x00, 0x00, 0x01, 0x00, 0x00, 0x00, 0x0a, 0x00, 0x00, 0x00, 0x01, 0x00, 0x00, 0x00, 0x00, 0x00, 0x00, 0x00, 0x0b, 0x00, 0x00, 0x00, 0xc4, 0x04, 0x00, 0x00, 0x34, 0x04, 0x00, 0x00, 0xc8, 0x03, 0x00, 0x00, 0x70, 0x03, 0x00, 0x00, 0x18, 0x03, 0x00, 0x00, 0xc4, 0x02, 0x00, 0x00, 0x50, 0x02, 0x00, 0x00, 0xa4, 0x01, 0x00, 0x00, 0xf0, 0x00, 0x00, 0x00, 0x60, 0x00, 0x00, 0x00, 0x04, 0x00, 0x00, 0x00, 0x7e, 0xfb, 0xff, 0xff, 0x00, 0x00, 0x00, 0x01, 0x14, 0x00, 0x00, 0x00, 0x1c, 0x00, 0x00, 0x00, 0x1c, 0x00, 0x00, 0x00, 0x0b, 0x00, 0x00, 0x00, 0x34, 0x00, 0x00, 0x00, 0x02, 0x00, 0x00, 0x00, 0xff, 0xff, 0xff, 0xff, 0x03, 0x00, 0x00, 0x00, 0x68, 0xfb, 0xff, 0xff, 0x1b, 0x00, 0x00, 0x00, 0x53, 0x74, 0x61, 0x74, 0x65, 0x66, 0x75, 0x6c, 0x50, 0x61, 0x72, 0x74, 0x69, 0x74, 0x69, 0x6f, 0x6e, 0x65, 0x64, 0x43, 0x61, 0x6c, 0x6c, 0x5f, 0x31, 0x3a, 0x30, 0x00, 0x02, 0x00, 0x00, 0x00, 0x01, 0x00, 0x00, 0x00, 0x03, 0x00, 0x00, 0x00, 0xd6, 0xfb, 0xff, 0xff, 0x00, 0x00, 0x00, 0x01, 0x14, 0x00, 0x00, 0x00, 0x1c, 0x00, 0x00, 0x00, 0x1c, 0x00, 0x00, 0x00, 0x0a, 0x00, 0x00, 0x00, 0x68, 0x00, 0x00, 0x00, 0x02, 0x00, 0x00, 0x00, 0xff, 0xff, 0xff, 0xff, 0x03, 0x00, 0x00, 0x00, 0xc0, 0xfb, 0xff, 0xff, 0x4c, 0x00, 0x00, 0x00, 0x67, 0x65, 0x73, 0x74, 0x75, 0x72, 0x65, 0x5f, 0x63, 0x6c, 0x61, 0x73, 0x73, 0x69, 0x66, 0x69, 0x65, 0x72, 0x5f, 0x31, 0x2f, 0x64, 0x65, 0x6e, 0x73, 0x65, 0x5f, 0x32, 0x5f, 0x31, 0x2f, 0x4d, 0x61, 0x74, 0x4d, 0x75, 0x6c, 0x3b, 0x67, 0x65, 0x73, 0x74, 0x75, 0x72, 0x65, 0x5f, 0x63, 0x6c, 0x61, 0x73, 0x73, 0x69, 0x66, 0x69, 0x65, 0x72, 0x5f, 0x31, 0x2f, 0x64, 0x65, 0x6e, 0x73, 0x65, 0x5f, 0x32, 0x5f, 0x31, 0x2f, 0x42, 0x69, 0x61, 0x73, 0x41, 0x64, 0x64, 0x00, 0x00, 0x00, 0x00, 0x02, 0x00, 0x00, 0x00, 0x01, 0x00, 0x00, 0x00, 0x03, 0x00, 0x00, 0x00, 0x62, 0xfc, 0xff, 0xff, 0x00, 0x00, 0x00, 0x01, 0x14, 0x00, 0x00, 0x00, 0x1c, 0x00, 0x00, 0x00, 0x1c, 0x00, 0x00, 0x00, 0x09, 0x00, 0x00, 0x00, 0x8c, 0x00, 0x00, 0x00, 0x02, 0x00, 0x00, 0x00, 0xff, 0xff, 0xff, 0xff, 0x08, 0x00, 0x00, 0x00, 0x4c, 0xfc, 0xff, 0xff, 0x70, 0x00, 0x00, 0x00, 0x67, 0x65, 0x73, 0x74, 0x75, 0x72, 0x65, 0x5f, 0x63, 0x6c, 0x61, 0x73, 0x73, 0x69, 0x66, 0x69, 0x65, 0x72, 0x5f, 0x31, 0x2f, 0x64, 0x65, 0x6e, 0x73, 0x65, 0x5f, 0x31, 0x5f, 0x32, 0x2f, 0x4d, 0x61, 0x74, 0x4d, 0x75, 0x6c, 0x3b, 0x67, 0x65, 0x73, 0x74, 0x75, 0x72, 0x65, 0x5f, 0x63, 0x6c, 0x61, 0x73, 0x73, 0x69, 0x66, 0x69, 0x65, 0x72, 0x5f, 0x31, 0x2f, 0x64, 0x65, 0x6e, 0x73, 0x65, 0x5f, 0x31, 0x5f, 0x32, 0x2f, 0x52, 0x65, 0x6c, 0x75, 0x3b, 0x67, 0x65, 0x73, 0x74, 0x75, 0x72, 0x65, 0x5f, 0x63, 0x6c, 0x61, 0x73, 0x73, 0x69, 0x66, 0x69, 0x65, 0x72, 0x5f, 0x31, 0x2f, 0x64, 0x65, 0x6e, 0x73, 0x65, 0x5f, 0x31, 0x5f, 0x32, 0x2f, 0x42, 0x69, 0x61, 0x73, 0x41, 0x64, 0x64, 0x00, 0x00, 0x00, 0x00, 0x02, 0x00, 0x00, 0x00, 0x01, 0x00, 0x00, 0x00, 0x08, 0x00, 0x00, 0x00, 0x12, 0xfd, 0xff, 0xff, 0x00, 0x00, 0x00, 0x01, 0x14, 0x00, 0x00, 0x00, 0x1c, 0x00, 0x00, 0x00, 0x1c, 0x00, 0x00, 0x00, 0x08, 0x00, 0x00, 0x00, 0x84, 0x00, 0x00, 0x00, 0x02, 0x00, 0x00, 0x00, 0xff, 0xff, 0xff, 0xff, 0x10, 0x00, 0x00, 0x00, 0xfc, 0xfc, 0xff, 0xff, 0x6a, 0x00, 0x00, 0x00, 0x67, 0x65, 0x73, 0x74, 0x75, 0x72, 0x65, 0x5f, 0x63, 0x6c, 0x61, 0x73, 0x73, 0x69, 0x66, 0x69, 0x65, 0x72, 0x5f, 0x31, 0x2f, 0x64, 0x65, 0x6e, 0x73, 0x65, 0x5f, 0x31, 0x2f, 0x4d, 0x61, 0x74, 0x4d, 0x75, 0x6c, 0x3b, 0x67, 0x65, 0x73, 0x74, 0x75, 0x72, 0x65, 0x5f, 0x63, 0x6c, 0x61, 0x73, 0x73, 0x69, 0x66, 0x69, 0x65, 0x72, 0x5f, 0x31, 0x2f, 0x64, 0x65, 0x6e, 0x73, 0x65, 0x5f, 0x31, 0x2f, 0x52, 0x65, 0x6c, 0x75, 0x3b, 0x67, 0x65, 0x73, 0x74, 0x75, 0x72, 0x65, 0x5f, 0x63, 0x6c, 0x61, 0x73, 0x73, 0x69, 0x66, 0x69, 0x65, 0x72, 0x5f, 0x31, 0x2f, 0x64, 0x65, 0x6e, 0x73, 0x65, 0x5f, 0x31, 0x2f, 0x42, 0x69, 0x61, 0x73, 0x41, 0x64, 0x64, 0x00, 0x00, 0x02, 0x00, 0x00, 0x00, 0x01, 0x00, 0x00, 0x00, 0x10, 0x00, 0x00, 0x00, 0x46, 0xfe, 0xff, 0xff, 0x00, 0x00, 0x00, 0x01, 0x10, 0x00, 0x00, 0x00, 0x10, 0x00, 0x00, 0x00, 0x07, 0x00, 0x00, 0x00, 0x54, 0x00, 0x00, 0x00, 0x94, 0xfd, 0xff, 0xff, 0x46, 0x00, 0x00, 0x00, 0x67, 0x65, 0x73, 0x74, 0x75, 0x72, 0x65, 0x5f, 0x63, 0x6c, 0x61, 0x73, 0x73, 0x69, 0x66, 0x69, 0x65, 0x72, 0x5f, 0x31, 0x2f, 0x64, 0x65, 0x6e, 0x73, 0x65, 0x5f, 0x31, 0x2f, 0x52, 0x65, 0x6c, 0x75, 0x3b, 0x67, 0x65, 0x73, 0x74, 0x75, 0x72, 0x65, 0x5f, 0x63, 0x6c, 0x61, 0x73, 0x73, 0x69, 0x66, 0x69, 0x65, 0x72, 0x5f, 0x31, 0x2f, 0x64, 0x65, 0x6e, 0x73, 0x65, 0x5f, 0x31, 0x2f, 0x42, 0x69, 0x61, 0x73, 0x41, 0x64, 0x64, 0x00, 0x00, 0x01, 0x00, 0x00, 0x00, 0x10, 0x00, 0x00, 0x00, 0xb6, 0xfe, 0xff, 0xff, 0x00, 0x00, 0x00, 0x01, 0x10, 0x00, 0x00, 0x00, 0x10, 0x00, 0x00, 0x00, 0x06, 0x00, 0x00, 0x00, 0x30, 0x00, 0x00, 0x00, 0x04, 0xfe, 0xff, 0xff, 0x23, 0x00, 0x00, 0x00, 0x67, 0x65, 0x73, 0x74, 0x75, 0x72, 0x65, 0x5f, 0x63, 0x6c, 0x61, 0x73, 0x73, 0x69, 0x66, 0x69, 0x65, 0x72, 0x5f, 0x31, 0x2f, 0x64, 0x65, 0x6e, 0x73, 0x65, 0x5f, 0x31, 0x2f, 0x4d, 0x61, 0x74, 0x4d, 0x75, 0x6c, 0x00, 0x02, 0x00, 0x00, 0x00, 0x10, 0x00, 0x00, 0x00, 0x18, 0x00, 0x00, 0x00, 0x06, 0xff, 0xff, 0xff, 0x00, 0x00, 0x00, 0x01, 0x10, 0x00, 0x00, 0x00, 0x10, 0x00, 0x00, 0x00, 0x05, 0x00, 0x00, 0x00, 0x34, 0x00, 0x00, 0x00, 0x54, 0xfe, 0xff, 0xff, 0x25, 0x00, 0x00, 0x00, 0x67, 0x65, 0x73, 0x74, 0x75, 0x72, 0x65, 0x5f, 0x63, 0x6c, 0x61, 0x73, 0x73, 0x69, 0x66, 0x69, 0x65, 0x72, 0x5f, 0x31, 0x2f, 0x64, 0x65, 0x6e, 0x73, 0x65, 0x5f, 0x31, 0x5f, 0x32, 0x2f, 0x4d, 0x61, 0x74, 0x4d, 0x75, 0x6c, 0x00, 0x00, 0x00, 0x02, 0x00, 0x00, 0x00, 0x08, 0x00, 0x00, 0x00, 0x10, 0x00, 0x00, 0x00, 0x5a, 0xff, 0xff, 0xff, 0x00, 0x00, 0x00, 0x01, 0x10, 0x00, 0x00, 0x00, 0x10, 0x00, 0x00, 0x00, 0x04, 0x00, 0x00, 0x00, 0x34, 0x00, 0x00, 0x00, 0xa8, 0xfe, 0xff, 0xff, 0x25, 0x00, 0x00, 0x00, 0x67, 0x65, 0x73, 0x74, 0x75, 0x72, 0x65, 0x5f, 0x63, 0x6c, 0x61, 0x73, 0x73, 0x69, 0x66, 0x69, 0x65, 0x72, 0x5f, 0x31, 0x2f, 0x64, 0x65, 0x6e, 0x73, 0x65, 0x5f, 0x32, 0x5f, 0x31, 0x2f, 0x4d, 0x61, 0x74, 0x4d, 0x75, 0x6c, 0x00, 0x00, 0x00, 0x02, 0x00, 0x00, 0x00, 0x03, 0x00, 0x00, 0x00, 0x08, 0x00, 0x00, 0x00, 0xae, 0xff, 0xff, 0xff, 0x00, 0x00, 0x00, 0x01, 0x10, 0x00, 0x00, 0x00, 0x10, 0x00, 0x00, 0x00, 0x03, 0x00, 0x00, 0x00, 0x34, 0x00, 0x00, 0x00, 0xfc, 0xfe, 0xff, 0xff, 0x26, 0x00, 0x00, 0x00, 0x67, 0x65, 0x73, 0x74, 0x75, 0x72, 0x65, 0x5f, 0x63, 0x6c, 0x61, 0x73, 0x73, 0x69, 0x66, 0x69, 0x65, 0x72, 0x5f, 0x31, 0x2f, 0x64, 0x65, 0x6e, 0x73, 0x65, 0x5f, 0x32, 0x5f, 0x31, 0x2f, 0x42, 0x69, 0x61, 0x73, 0x41, 0x64, 0x64, 0x00, 0x00, 0x01, 0x00, 0x00, 0x00, 0x03, 0x00, 0x00, 0x00, 0x00, 0x00, 0x16, 0x00, 0x18, 0x00, 0x14, 0x00, 0x00, 0x00, 0x10, 0x00, 0x0c, 0x00, 0x08, 0x00, 0x00, 0x00, 0x00, 0x00, 0x00, 0x00, 0x07, 0x00, 0x16, 0x00, 0x00, 0x00, 0x00, 0x00, 0x00, 0x01, 0x10, 0x00, 0x00, 0x00, 0x10, 0x00, 0x00, 0x00, 0x02, 0x00, 0x00, 0x00, 0x58, 0x00, 0x00, 0x00, 0x64, 0xff, 0xff, 0xff, 0x4a, 0x00, 0x00, 0x00, 0x67, 0x65, 0x73, 0x74, 0x75, 0x72, 0x65, 0x5f, 0x63, 0x6c, 0x61, 0x73, 0x73, 0x69, 0x66, 0x69, 0x65, 0x72, 0x5f, 0x31, 0x2f, 0x64, 0x65, 0x6e, 0x73, 0x65, 0x5f, 0x31, 0x5f, 0x32, 0x2f, 0x52, 0x65, 0x6c, 0x75, 0x3b, 0x67, 0x65, 0x73, 0x74, 0x75, 0x72, 0x65, 0x5f, 0x63, 0x6c, 0x61, 0x73, 0x73, 0x69, 0x66, 0x69, 0x65, 0x72, 0x5f, 0x31, 0x2f, 0x64, 0x65, 0x6e, 0x73, 0x65, 0x5f, 0x31, 0x5f, 0x32, 0x2f, 0x42, 0x69, 0x61, 0x73, 0x41, 0x64, 0x64, 0x00, 0x00, 0x01, 0x00, 0x00, 0x00, 0x08, 0x00, 0x00, 0x00, 0x00, 0x00, 0x16, 0x00, 0x1c, 0x00, 0x18, 0x00, 0x00, 0x00, 0x14, 0x00, 0x10, 0x00, 0x0c, 0x00, 0x00, 0x00, 0x00, 0x00, 0x08, 0x00, 0x07, 0x00, 0x16, 0x00, 0x00, 0x00, 0x00, 0x00, 0x00, 0x01, 0x14, 0x00, 0x00, 0x00, 0x20, 0x00, 0x00, 0x00, 0x20, 0x00, 0x00, 0x00, 0x01, 0x00, 0x00, 0x00, 0x3c, 0x00, 0x00, 0x00, 0x02, 0x00, 0x00, 0x00, 0xff, 0xff, 0xff, 0xff, 0x18, 0x00, 0x00, 0x00, 0x04, 0x00, 0x04, 0x00, 0x04, 0x00, 0x00, 0x00, 0x1e, 0x00, 0x00, 0x00, 0x73, 0x65, 0x72, 0x76, 0x69, 0x6e, 0x67, 0x5f, 0x64, 0x65, 0x66, 0x61, 0x75, 0x6c, 0x74, 0x5f, 0x6b, 0x65, 0x72, 0x61, 0x73, 0x5f, 0x74, 0x65, 0x6e, 0x73, 0x6f, 0x72, 0x3a, 0x30, 0x00, 0x00, 0x02, 0x00, 0x00, 0x00, 0x01, 0x00, 0x00, 0x00, 0x18, 0x00, 0x00, 0x00, 0x02, 0x00, 0x00, 0x00, 0x20, 0x00, 0x00, 0x00, 0x04, 0x00, 0x00, 0x00, 0xf4, 0xff, 0xff, 0xff, 0x19, 0x00, 0x00, 0x00, 0x00, 0x00, 0x00, 0x19, 0x0c, 0x00, 0x0c, 0x00, 0x0b, 0x00, 0x00, 0x00, 0x00, 0x00, 0x04, 0x00, 0x0c, 0x00, 0x00, 0x00, 0x09, 0x00, 0x00, 0x00, 0x00, 0x00, 0x00, 0x09
};

const int model_data_len = 4572;
